<unk>	0
<s>	0
</s>	0
.	-3.20223
s	-3.28599
▁I	-3.80805
▁the	-4.02363
t	-4.04213
'	-4.14366
▁a	-4.15346
,	-4.21878
▁to	-4.26606
▁	-4.52148
▁you	-4.61444
▁it	-4.66591
ing	-4.69292
▁and	-4.73546
▁is	-4.75854
▁that	-4.77315
NAME	-4.81928
m	-4.81934
▁[	-4.8206
▁of	-4.88759
▁in	-4.92096
’	-4.94016
]	-4.9491
d	-4.9887
ed	-5.00877
!	-5.05802
▁for	-5.07048
▁this	-5.25091
y	-5.28184
?	-5.28425
re	-5.34301
▁be	-5.367
n	-5.46437
▁was	-5.47687
e	-5.47937
▁on	-5.56369
▁like	-5.61351
r	-5.61472
▁me	-5.62504
▁not	-5.65127
▁have	-5.66803
▁so	-5.67281
▁my	-5.68477
▁with	-5.6865
c	-5.68849
ly	-5.69559
▁but	-5.71273
▁are	-5.71592
er	-5.72341
▁just	-5.73241
p	-5.77289
▁he	-5.83006
g	-5.86195
a	-5.86288
▁can	-5.91868
▁they	-5.92773
o	-5.93284
▁your	-5.95301
l	-5.98507
ve	-6.01244
i	-6.03466
...	-6.04867
▁It	-6.10163
al	-6.12046
▁You	-6.1466
▁do	-6.15207
▁we	-6.15742
▁about	-6.16224
in	-6.16345
▁what	-6.19308
▁don	-6.19804
b	-6.20553
▁S	-6.21501
▁That	-6.23281
▁all	-6.23361
▁one	-6.25675
▁get	-6.25866
u	-6.26482
f	-6.27002
ar	-6.27225
ll	-6.27405
▁A	-6.28144
▁at	-6.28265
▁out	-6.29063
▁love	-6.29511
▁would	-6.30084
▁if	-6.30287
h	-6.31428
or	-6.31523
▁The	-6.35023
le	-6.35211
▁people	-6.35844
▁up	-6.36498
▁know	-6.3698
▁an	-6.37839
▁as	-6.38389
-	-6.40051
▁think	-6.42414
▁p	-6.4413
it	-6.44493
▁This	-6.45141
▁no	-6.46477
▁i	-6.47695
A	-6.48405
▁from	-6.49134
▁or	-6.54536
▁re	-6.54672
▁really	-6.56075
▁too	-6.56569
▁how	-6.56583
v	-6.57082
▁good	-6.57889
▁more	-6.58255
▁see	-6.59247
▁her	-6.59438
▁when	-6.59556
k	-6.59888
▁him	-6.60125
"	-6.60675
en	-6.61112
E	-6.62548
ur	-6.6295
▁will	-6.6344
ent	-6.63925
S	-6.64181
▁there	-6.64296
I	-6.64975
▁she	-6.65641
▁time	-6.65979
▁has	-6.66028
▁"	-6.66509
ri	-6.66915
▁them	-6.66959
O	-6.67183
▁He	-6.68028
▁B	-6.69874
▁his	-6.69931
▁T	-6.70464
▁some	-6.7172
es	-6.71894
th	-6.74597
▁b	-6.76323
w	-6.76889
T	-6.77332
▁who	-6.78999
ic	-6.79418
▁now	-6.80685
▁W	-6.82826
/	-6.83149
▁P	-6.84019
▁want	-6.84235
an	-6.84344
▁r	-6.85972
▁had	-6.86779
▁c	-6.86961
▁C	-6.87215
ra	-6.88612
▁much	-6.89813
se	-6.90516
on	-6.90736
at	-6.91236
▁even	-6.91711
▁go	-6.92242
▁been	-6.9347
ation	-6.94601
▁because	-6.94648
▁F	-6.94674
▁their	-6.953
▁by	-6.95579
▁than	-6.9647
▁got	-6.97245
▁feel	-6.97324
▁M	-6.97522
ion	-6.98043
▁still	-6.98904
▁bad	-6.98925
▁What	-6.99177
▁way	-6.99752
▁right	-6.99783
▁make	-6.99806
▁No	-7.00507
▁only	-7.00677
▁here	-7.00872
ch	-7.01576
D	-7.01788
▁should	-7.0198
▁man	-7.04436
▁de	-7.04455
▁didn	-7.069
▁off	-7.07263
▁say	-7.08286
▁being	-7.08652
as	-7.09704
▁back	-7.10286
us	-7.10345
▁Oh	-7.10509
ce	-7.11563
▁un	-7.1214
▁never	-7.12375
▁O	-7.12446
▁They	-7.12644
L	-7.12815
▁need	-7.14286
▁D	-7.14578
il	-7.14949
▁thing	-7.15309
▁st	-7.15758
)	-7.15849
M	-7.15875
▁over	-7.16179
ate	-7.16455
▁were	-7.16547
ro	-7.1702
un	-7.17403
▁co	-7.17422
▁did	-7.17668
▁lol	-7.17788
▁other	-7.17927
▁work	-7.18267
▁G	-7.18553
*	-7.18672
▁going	-7.19049
▁So	-7.19437
ers	-7.19839
▁f	-7.19953
ive	-7.20159
z	-7.20281
▁mean	-7.20493
x	-7.21841
▁Thanks	-7.22024
▁better	-7.23218
am	-7.23222
▁why	-7.23448
:	-7.23596
ter	-7.23972
ies	-7.24061
▁If	-7.24431
ity	-7.24972
▁hope	-7.25224
ol	-7.25278
▁Thank	-7.25417
▁>	-7.25614
▁And	-7.26544
▁could	-7.26752
▁H	-7.27022
▁very	-7.27295
▁post	-7.27902
▁*	-7.27941
is	-7.28124
▁any	-7.28261
▁then	-7.28723
▁game	-7.29635
lo	-7.29858
▁2	-7.29967
▁fuck	-7.30708
▁someone	-7.30881
P	-7.3113
ment	-7.3135
▁We	-7.31363
▁con	-7.31615
▁N	-7.3164
▁take	-7.32155
tion	-7.32676
id	-7.32707
▁actually	-7.33303
▁thought	-7.33358
C	-7.33504
ir	-7.33516
ng	-7.33995
el	-7.34002
▁great	-7.34122
et	-7.34353
te	-7.34965
▁g	-7.34975
▁sure	-7.35612
▁But	-7.35681
▁doesn	-7.36091
▁My	-7.361
▁Yeah	-7.36146
▁though	-7.36402
H	-7.37205
ist	-7.3746
N	-7.37659
ting	-7.37824
Y	-7.38659
ul	-7.3907
▁day	-7.40057
▁E	-7.4006
op	-7.40808
▁something	-7.41207
▁(	-7.4198
▁pro	-7.4252
▁same	-7.42823
▁pretty	-7.42837
▁well	-7.42867
able	-7.43217
co	-7.43312
▁guy	-7.44207
▁She	-7.44895
▁look	-7.45297
▁dis	-7.45793
la	-7.4653
▁help	-7.4695
▁year	-7.47519
▁into	-7.48487
▁am	-7.48664
▁down	-7.49544
].	-7.49592
▁bo	-7.49691
▁those	-7.51149
de	-7.51259
▁Not	-7.51438
age	-7.51473
F	-7.51496
▁also	-7.51863
0	-7.5192
▁first	-7.51983
▁hate	-7.52131
▁best	-7.52349
▁after	-7.53359
U	-7.54048
▁Just	-7.54171
▁always	-7.54951
”	-7.54993
ut	-7.55248
▁life	-7.55334
▁“	-7.55503
▁point	-7.5579
▁us	-7.55839
▁1	-7.55919
R	-7.55952
est	-7.5683
um	-7.57061
▁most	-7.57164
▁e	-7.57342
▁hard	-7.57975
▁our	-7.58035
end	-7.5828
ne	-7.5895
ure	-7.59125
▁old	-7.59513
▁years	-7.59697
▁made	-7.60215
ck	-7.6041
▁sub	-7.60488
▁real	-7.60547
▁said	-7.60637
▁person	-7.60742
!!	-7.60844
▁before	-7.61432
ac	-7.61882
▁find	-7.61888
▁makes	-7.61924
oo	-7.62703
ver	-7.63242
▁give	-7.63312
▁ever	-7.63521
▁part	-7.63638
less	-7.63948
B	-7.63968
▁ex	-7.6494
▁come	-7.65056
im	-7.65269
ha	-7.65413
▁shit	-7.65431
▁lot	-7.65667
▁ba	-7.65848
ty	-7.66584
▁sorry	-7.66816
W	-7.66984
ant	-7.67049
pe	-7.67243
▁show	-7.67471
▁3	-7.6767
▁these	-7.67693
ow	-7.67996
ig	-7.68452
▁R	-7.68471
▁sp	-7.68513
▁ch	-7.69418
▁getting	-7.69499
▁play	-7.69675
▁fun	-7.70199
▁long	-7.70598
no	-7.7098
▁looks	-7.71203
ry	-7.71341
▁last	-7.71538
ill	-7.71838
▁L	-7.71967
G	-7.71982
▁im	-7.72063
▁things	-7.72234
▁isn	-7.72382
],	-7.72392
▁sh	-7.72484
▁di	-7.72489
▁po	-7.72621
ad	-7.73462
▁end	-7.73526
▁Good	-7.74044
▁use	-7.74075
▁sc	-7.74707
▁ma	-7.74753
▁every	-7.75483
lu	-7.75488
▁keep	-7.75603
▁wrong	-7.76061
▁does	-7.76171
▁probably	-7.76623
▁-	-7.7681
▁where	-7.76914
▁read	-7.76966
▁:)	-7.77247
mo	-7.77377
ine	-7.77403
▁su	-7.77437
▁new	-7.77844
ful	-7.79064
▁anything	-7.79327
▁fl	-7.79662
me	-7.80147
1	-7.80309
▁comment	-7.80889
ma	-7.8111
▁Wow	-7.81201
▁win	-7.81661
ther	-7.81777
▁tell	-7.82052
▁Well	-7.82156
ish	-7.82297
▁care	-7.82363
2	-7.82543
ho	-7.8274
ard	-7.82768
▁ho	-7.83429
up	-7.8381
uck	-7.83968
▁doing	-7.84704
▁little	-7.84736
▁How	-7.84877
he	-7.85005
▁K	-7.85041
▁many	-7.85267
▁h	-7.85874
▁pre	-7.86159
▁w	-7.86626
ip	-7.8687
ge	-7.8723
▁happy	-7.8727
▁la	-7.87323
bo	-7.87609
▁There	-7.87705
▁car	-7.88128
▁stop	-7.88217
ance	-7.88251
ru	-7.88666
▁wish	-7.88943
▁fa	-7.89084
▁Don	-7.89215
▁n	-7.8933
ie	-7.89954
▁let	-7.90139
and	-7.90344
▁fe	-7.90879
▁believe	-7.91227
5	-7.91478
▁least	-7.91821
▁U	-7.92192
na	-7.92295
▁thanks	-7.92641
ever	-7.92681
▁ha	-7.93009
▁everyone	-7.94028
▁try	-7.94047
sh	-7.94087
▁both	-7.94514
▁cr	-7.94585
▁live	-7.95277
ee	-7.95389
▁problem	-7.95405
▁4	-7.95599
▁fan	-7.95613
per	-7.96229
▁reason	-7.96421
▁luck	-7.96716
▁put	-7.96971
▁kill	-7.9699
▁call	-7.97442
▁kind	-7.97506
ted	-7.9759
▁again	-7.97597
▁team	-7.97682
▁nice	-7.97768
▁cl	-7.98402
▁watch	-7.9879
▁Can	-7.9956
▁around	-7.99639
▁guess	-7.99835
▁already	-7.99897
▁high	-8.00481
▁enough	-8.00496
▁dude	-8.00504
ism	-8.00751
▁mo	-8.01102
K	-8.01388
▁Why	-8.0153
▁understand	-8.01791
▁trying	-8.01795
▁Yes	-8.02038
ack	-8.02517
pa	-8.02552
ice	-8.02569
▁start	-8.02688
▁Be	-8.02743
▁seen	-8.02915
▁glad	-8.03053
nd	-8.03227
ally	-8.03431
▁Go	-8.03938
▁Lol	-8.04114
3	-8.04394
po	-8.04407
▁video	-8.05007
▁friend	-8.05484
▁weird	-8.05491
▁cool	-8.05663
▁hear	-8.0593
▁idea	-8.06392
ap	-8.06585
ub	-8.06875
▁while	-8.07155
▁girl	-8.07421
▁far	-8.07484
ia	-8.07531
▁:	-8.08038
ake	-8.08153
▁having	-8.08279
▁own	-8.0851
nk	-8.08516
▁might	-8.08692
▁li	-8.0873
▁hand	-8.08918
▁else	-8.09324
▁bit	-8.09598
▁Do	-8.09607
▁wait	-8.09965
der	-8.10056
▁j	-8.10145
4	-8.10308
▁big	-8.1032
tic	-8.10339
▁won	-8.10355
▁gonna	-8.11043
▁guys	-8.1116
▁week	-8.11191
▁thank	-8.11218
ot	-8.11239
▁place	-8.11841
ta	-8.12248
▁change	-8.1229
to	-8.12441
▁since	-8.12646
▁ta	-8.12814
▁sad	-8.12862
▁sa	-8.13122
▁nothing	-8.1341
ight	-8.13494
▁yourself	-8.13755
!!!	-8.13875
▁name	-8.14065
▁5	-8.14133
ome	-8.14161
▁d	-8.14188
▁anyone	-8.14722
one	-8.1474
all	-8.14748
▁ga	-8.15013
....	-8.15047
▁job	-8.1601
▁ask	-8.16418
ated	-8.16967
if	-8.17325
▁da	-8.1746
▁stupid	-8.17774
▁comp	-8.17887
▁Re	-8.17906
ence	-8.18078
▁such	-8.1825
▁fact	-8.18333
▁two	-8.18649
ke	-8.18786
▁saying	-8.18804
▁Maybe	-8.19019
ak	-8.19577
vo	-8.19616
ary	-8.19825
▁away	-8.19859
king	-8.19864
▁next	-8.19965
▁J	-8.19972
ff	-8.20003
ous	-8.20053
▁agree	-8.20208
dy	-8.20507
▁vi	-8.20834
▁through	-8.20838
▁kid	-8.20995
▁pe	-8.21958
▁In	-8.22095
ld	-8.22464
ick	-8.22782
▁Sorry	-8.22935
▁another	-8.22935
ca	-8.22963
▁amazing	-8.23015
▁lo	-8.23211
be	-8.2338
▁damn	-8.23428
▁money	-8.23588
▁without	-8.23589
▁left	-8.23754
ain	-8.23793
▁Y	-8.24168
▁remember	-8.24825
▁face	-8.2488
em	-8.25216
▁bro	-8.25651
▁enjoy	-8.25659
▁seems	-8.2571
j	-8.26
▁head	-8.2641
▁V	-8.26488
▁world	-8.26499
▁/	-8.2663
▁until	-8.27014
▁ti	-8.27115
▁whole	-8.27266
▁home	-8.2748
▁few	-8.27896
ness	-8.28226
▁true	-8.28376
do	-8.28672
▁which	-8.28805
ear	-8.28928
▁act	-8.29016
▁season	-8.29075
▁gen	-8.29384
▁y	-8.29404
▁tr	-8.29449
▁kids	-8.29472
ise	-8.29519
for	-8.29732
▁joke	-8.29776
▁wouldn	-8.29818
▁done	-8.30089
cu	-8.30268
▁favorite	-8.30372
▁used	-8.30409
▁mind	-8.30587
▁second	-8.30636
▁definitely	-8.30724
ite	-8.30938
ster	-8.31071
▁happen	-8.31753
ating	-8.31896
ial	-8.32184
▁De	-8.32571
▁u	-8.32629
▁v	-8.3285
ian	-8.32949
ER	-8.3322
▁looking	-8.33254
▁sounds	-8.33268
▁Damn	-8.33677
▁pay	-8.33963
▁o	-8.34077
▁free	-8.34283
▁wonder	-8.34294
▁hell	-8.34311
▁wasn	-8.34373
▁ago	-8.34535
our	-8.34761
▁laugh	-8.34894
ious	-8.35008
ward	-8.35623
und	-8.35691
▁against	-8.35692
▁Love	-8.36117
▁different	-8.36153
▁must	-8.36268
6	-8.36281
lie	-8.36365
ba	-8.36415
▁awesome	-8.36432
▁question	-8.36432
ling	-8.36633
▁yeah	-8.369
▁less	-8.36945
▁20	-8.37045
▁Because	-8.37369
rs	-8.37426
▁Now	-8.37538
▁friends	-8.37842
▁As	-8.38235
▁move	-8.38239
▁St	-8.38302
ex	-8.38447
▁talk	-8.38542
▁app	-8.38589
▁funny	-8.38638
ber	-8.38658
ON	-8.38715
▁feeling	-8.39483
▁miss	-8.4013
RE	-8.40302
▁For	-8.40544
▁Your	-8.40687
▁en	-8.40864
▁ne	-8.41002
▁came	-8.41259
▁school	-8.41304
ash	-8.41323
ner	-8.41599
▁making	-8.41653
▁sw	-8.41695
▁support	-8.41697
▁sex	-8.41916
▁under	-8.41921
▁stuff	-8.41924
▁THE	-8.422
min	-8.4221
▁heard	-8.42333
▁talking	-8.42349
▁literally	-8.42585
▁10	-8.42713
▁seem	-8.42826
lic	-8.43157
▁eat	-8.4332
oc	-8.43499
ach	-8.43518
▁sl	-8.43577
▁bl	-8.43876
▁worse	-8.44084
line	-8.44114
7	-8.4431
day	-8.44379
▁happened	-8.4454
▁per	-8.44686
▁women	-8.4469
▁interesting	-8.44952
ger	-8.45001
▁went	-8.45002
▁Ha	-8.4509
▁maybe	-8.45121
00	-8.45168
ough	-8.45995
▁either	-8.4622
▁yet	-8.46527
▁dont	-8.46555
▁Mo	-8.46626
▁:(	-8.46652
use	-8.46775
ail	-8.46799
▁myself	-8.46839
▁close	-8.47054
▁saw	-8.47235
uch	-8.47265
▁turn	-8.47463
▁everything	-8.47777
▁once	-8.47831
▁Ah	-8.47956
▁hit	-8.48227
own	-8.48236
▁Also	-8.4893
▁Me	-8.49216
▁6	-8.49308
land	-8.49604
▁ok	-8.49703
▁Ma	-8.49709
ugh	-8.49876
ical	-8.49891
▁Look	-8.50143
▁check	-8.50313
▁em	-8.50332
▁pick	-8.50351
▁k	-8.50382
▁dog	-8.50383
ped	-8.50558
▁hurt	-8.50642
▁super	-8.50819
▁expect	-8.50958
▁Haha	-8.50986
que	-8.51197
les	-8.51547
rn	-8.51642
▁Or	-8.51699
▁When	-8.52481
8	-8.52496
▁today	-8.52791
uc	-8.52838
▁th	-8.5296
▁ref	-8.53159
▁ca	-8.53501
▁aren	-8.53514
▁story	-8.53636
▁haha	-8.53724
ook	-8.54051
▁playing	-8.54151
▁sense	-8.54246
man	-8.54287
▁Un	-8.54369
▁terrible	-8.5458
▁break	-8.55029
rate	-8.55185
V	-8.55336
▁worst	-8.55367
▁leg	-8.55513
▁Ho	-8.55554
wa	-8.55567
▁matter	-8.55595
▁times	-8.55811
▁deal	-8.5616
▁dumb	-8.56275
▁va	-8.56471
▁yes	-8.5652
out	-8.56611
tch	-8.56612
▁issue	-8.56621
air	-8.56628
▁OP	-8.56672
▁state	-8.56978
▁gets	-8.57054
hi	-8.57088
**	-8.57486
mon	-8.5763
▁almost	-8.57761
bu	-8.57819
?!	-8.58032
▁cha	-8.58035
▁may	-8.58076
▁Let	-8.58223
▁tho	-8.58343
▁Hi	-8.58752
▁learn	-8.58806
ual	-8.58998
con	-8.59133
▁wi	-8.59627
ning	-8.60116
▁tra	-8.60296
▁bi	-8.60418
▁side	-8.60707
▁Have	-8.60897
▁crazy	-8.61045
the	-8.61202
▁realize	-8.61415
▁All	-8.61655
ES	-8.6172
▁found	-8.62004
▁leave	-8.62367
▁exactly	-8.62368
▁wanted	-8.6258
ide	-8.62838
▁plan	-8.6287
▁Co	-8.63107
▁fi	-8.63138
ump	-8.63476
▁Th	-8.63628
▁pain	-8.63713
▁Po	-8.63808
▁movie	-8.63951
▁eye	-8.64119
we	-8.64157
▁pass	-8.65346
▁boy	-8.65374
side	-8.6538
▁hour	-8.65425
where	-8.65679
▁men	-8.65699
ists	-8.65958
▁needs	-8.66149
▁oh	-8.6618
▁lose	-8.66303
▁thinking	-8.66325
ga	-8.66336
▁stand	-8.66481
▁qu	-8.66483
▁gra	-8.66505
▁tea	-8.66527
▁Happy	-8.66562
rd	-8.66762
▁family	-8.66814
ign	-8.6699
▁poor	-8.67035
!!!!	-8.67039
▁Please	-8.67194
▁On	-8.67199
▁stay	-8.672
▁mis	-8.67262
▁cause	-8.67368
▁hi	-8.67587
▁le	-8.6761
go	-8.68035
▁war	-8.68069
▁god	-8.68206
▁open	-8.6822
▁run	-8.68381
▁days	-8.68895
app	-8.68914
▁add	-8.69212
▁surprised	-8.69523
▁die	-8.69759
▁YOU	-8.69933
▁To	-8.70085
▁Are	-8.70278
▁news	-8.7039
▁worth	-8.70416
▁beautiful	-8.70547
▁At	-8.70847
▁#	-8.71063
▁line	-8.71104
▁coming	-8.71108
▁child	-8.71204
taking	-8.71321
ize	-8.71492
▁gu	-8.7155
▁lost	-8.71577
▁cry	-8.71682
▁fight	-8.7174
▁...	-8.7179
▁fr	-8.7197
▁cute	-8.72116
▁deserve	-8.72266
▁please	-8.72534
iz	-8.72631
▁awful	-8.72819
ny	-8.72925
▁appreciate	-8.72957
[	-8.73063
tra	-8.73173
ph	-8.73266
▁heart	-8.73278
▁entire	-8.7361
▁woman	-8.73757
▁Man	-8.73759
of	-8.73784
9	-8.73887
▁night	-8.73958
▁mom	-8.74101
▁sign	-8.74196
▁Get	-8.74201
▁word	-8.74531
▁buy	-8.74711
▁opinion	-8.75108
ING	-8.75421
▁self	-8.75659
▁exist	-8.75841
▁cat	-8.75898
▁games	-8.76076
▁shot	-8.76177
▁Who	-8.76322
▁law	-8.765
▁Some	-8.76601
▁Glad	-8.76911
▁People	-8.77189
▁fine	-8.77673
▁Da	-8.7796
itch	-8.78143
▁watching	-8.78487
fe	-8.78926
dic	-8.78991
▁8	-8.79146
;	-8.7917
▁9	-8.79337
▁vote	-8.79549
▁haven	-8.79733
▁picture	-8.80032
▁thread	-8.80483
_	-8.8061
▁full	-8.80766
X	-8.80901
▁character	-8.81046
▁Like	-8.81074
▁took	-8.81089
▁imagine	-8.81484
▁moment	-8.81488
▁case	-8.81518
tro	-8.81682
hose	-8.8169
▁sound	-8.81974
bi	-8.82022
▁lmao	-8.82073
▁Great	-8.82074
▁Ba	-8.82118
▁meme	-8.82234
▁situation	-8.82366
▁Did	-8.82462
▁absolutely	-8.82635
▁able	-8.82917
key	-8.82945
▁anyway	-8.83009
▁rather	-8.83259
▁consider	-8.83405
aw	-8.83598
▁minute	-8.83705
▁worry	-8.83853
bb	-8.83931
▁tri	-8.84023
▁top	-8.84103
▁between	-8.84153
ors	-8.84215
▁mu	-8.84285
▁chance	-8.84426
ative	-8.84491
▁kinda	-8.84515
hhh	-8.84909
▁rest	-8.85185
▁instead	-8.85211
▁7	-8.85322
▁Ca	-8.85491
ah	-8.8557
▁called	-8.85613
▁late	-8.85763
▁count	-8.85801
ically	-8.85837
▁throw	-8.85978
▁gun	-8.86201
▁past	-8.86472
▁soon	-8.86542
▁half	-8.86589
▁Was	-8.86614
▁US	-8.8662
▁okay	-8.86897
▁reddit	-8.87206
▁idiot	-8.8736
di	-8.87552
OR	-8.87704
▁experience	-8.87826
▁become	-8.8783
VE	-8.88198
▁Fuck	-8.88412
▁strong	-8.88452
▁hair	-8.88673
▁human	-8.88766
ship	-8.88795
▁ball	-8.8925
▁told	-8.89282
▁hot	-8.89729
▁One	-8.89768
rk	-8.89854
▁Le	-8.89867
▁downvote	-8.89877
▁sit	-8.89901
▁explain	-8.90192
ton	-8.90328
▁dead	-8.90329
▁answer	-8.90352
▁Bo	-8.90658
▁together	-8.90674
▁food	-8.90674
▁pi	-8.9068
AT	-8.907
▁goes	-8.90703
▁honestly	-8.90708
▁drive	-8.90739
▁Li	-8.90747
▁forgot	-8.90851
▁low	-8.90899
low	-8.91118
▁min	-8.91134
▁sweet	-8.91157
ient	-8.91563
▁knew	-8.91639
▁Any	-8.91907
▁Does	-8.91952
▁Lo	-8.92056
▁perfect	-8.92135
▁young	-8.92381
▁comments	-8.92381
▁tried	-8.9256
port	-8.92678
▁link	-8.9269
▁age	-8.92824
]?	-8.93047
▁alone	-8.93125
▁using	-8.93406
️	-8.93436
IN	-8.93585
ible	-8.93594
aving	-8.93767
▁class	-8.93777
▁non	-8.93941
▁each	-8.94027
▁fall	-8.94166
▁couldn	-8.94298
▁completely	-8.94571
bility	-8.94598
▁phone	-8.94766
▁bring	-8.94962
(	-8.9499
▁bar	-8.95003
▁health	-8.95105
▁anymore	-8.95436
▁clear	-8.9545
▁**	-8.95472
▁listen	-8.95527
fully	-8.95633
+	-8.95772
▁creat	-8.95863
▁ya	-8.96034
▁baby	-8.96114
ory	-8.96287
▁sucks	-8.96302
▁save	-8.96633
oke	-8.96644
▁couple	-8.9679
▁Then	-8.96957
▁Hey	-8.9745
▁horrible	-8.97474
▁players	-8.97499
▁Sa	-8.97596
▁words	-8.98047
▁fair	-8.98132
▁wh	-8.98135
▁article	-8.98857
▁level	-8.98858
ew	-8.98966
▁bra	-8.99064
▁episode	-8.9938
▁country	-8.99609
▁number	-9.00083
▁social	-9.00086
▁Same	-9.00141
▁beat	-9.00222
▁😂	-9.00227
▁relationship	-9.00259
J	-9.00414
▁Every	-9.00585
▁wife	-9.00638
▁power	-9.00796
▁rap	-9.00893
ile	-9.01077
ities	-9.01332
read	-9.01413
▁parents	-9.01503
▁base	-9.01675
▁See	-9.01829
▁single	-9.01866
▁played	-9.01866
io	-9.02226
▁walk	-9.02408
▁meant	-9.02664
^	-9.02937
▁quite	-9.03161
▁gotta	-9.03225
▁type	-9.03502
▁song	-9.03552
▁house	-9.03565
▁dad	-9.03785
▁ob	-9.03809
▁nu	-9.04155
▁future	-9.0422
▁correct	-9.04267
▁sec	-9.04464
▁troll	-9.04595
▁Ok	-9.0461
▁mode	-9.04739
▁La	-9.04743
istic	-9.04745
▁def	-9.04759
▁Would	-9.04957
▁happens	-9.05115
▁control	-9.05153
▁attack	-9.05339
▁account	-9.05514
▁Hope	-9.05583
▁safe	-9.05603
▁Very	-9.05704
▁America	-9.05887
▁normal	-9.06075
▁started	-9.06499
▁TO	-9.06746
▁sometimes	-9.06829
▁inter	-9.06981
▁possible	-9.07203
▁Omg	-9.07219
▁cop	-9.073
▁government	-9.07392
▁advice	-9.07582
▁cut	-9.07594
AR	-9.07629
▁Even	-9.07972
▁New	-9.08041
LL	-9.08109
▁months	-9.08233
▁term	-9.08318
▁strange	-9.08404
NT	-9.08634
▁totally	-9.08992
ized	-9.09009
▁small	-9.09501
▁ass	-9.09626
▁Reddit	-9.09888
▁course	-9.10083
▁reading	-9.10226
▁easy	-9.10279
▁set	-9.10302
▁Sound	-9.10639
▁racist	-9.10864
▁posted	-9.10932
▁date	-9.1107
▁curious	-9.11258
TH	-9.11276
▁gone	-9.11431
▁figure	-9.11653
▁piss	-9.11885
▁Pa	-9.11952
▁pat	-9.12008
▁speak	-9.1205
▁mad	-9.12183
▁mate	-9.12236
▁forget	-9.12497
RELIGION	-9.12646
▁Edit	-9.12655
▁simpl	-9.12846
▁Nice	-9.12852
▁quick	-9.13089
▁Wait	-9.13252
▁fire	-9.13314
time	-9.13323
▁book	-9.1339
▁drop	-9.13442
▁tw	-9.13445
▁upvote	-9.13453
ED	-9.13656
spect	-9.13711
▁Dude	-9.13853
▁children	-9.13856
▁trans	-9.14093
▁anti	-9.14147
▁Com	-9.14304
Z	-9.14664
▁fail	-9.14709
EN	-9.15158
▁water	-9.15283
▁subreddit	-9.15689
▁sick	-9.15999
▁suck	-9.16014
▁response	-9.16102
▁hold	-9.16216
way	-9.16305
▁wow	-9.16586
▁Really	-9.16606
▁cringe	-9.16929
▁short	-9.16962
▁fake	-9.17087
▁body	-9.17093
▁Never	-9.17166
▁missed	-9.17174
▁art	-9.17283
post	-9.17486
▁$	-9.17528
▁wanna	-9.1756
▁grow	-9.17587
right	-9.1763
▁pun	-9.17731
~~	-9.17771
ify	-9.17793
▁remind	-9.17988
▁mine	-9.18034
▁red	-9.18085
▁shame	-9.18214
▁working	-9.18972
qui	-9.19157
▁30	-9.19181
ier	-9.19254
▁pan	-9.19344
▁lead	-9.19347
▁du	-9.1948
▁Chi	-9.19631
▁Nah	-9.1986
▁excited	-9.19896
▁boo	-9.20546
▁near	-9.2065
▁goal	-9.20678
▁looked	-9.20726
▁^	-9.20741
▁giving	-9.20759
▁ten	-9.2076
▁bigge	-9.20789
▁broke	-9.20896
=	-9.20976
IT	-9.21087
▁fast	-9.21365
▁Pro	-9.21463
lock	-9.21736
▁Honestly	-9.21848
▁internet	-9.2185
▁shoot	-9.21864
▁group	-9.22068
▁room	-9.22093
▁mention	-9.22204
▁argument	-9.22287
pro	-9.22452
▁gold	-9.22797
▁Keep	-9.2295
▁claim	-9.2295
▁sort	-9.23095
▁follow	-9.23839
light	-9.23918
▁cake	-9.23995
▁later	-9.24009
▁cold	-9.2408
▁Lmao	-9.24202
▁serious	-9.24397
▁tbh	-9.24513
▁arm	-9.24728
▁huge	-9.24849
▁seriously	-9.24852
▁step	-9.24901
▁history	-9.25193
AND	-9.25272
▁Yea	-9.25421
▁odd	-9.25429
▁month	-9.25553
like	-9.25705
▁loss	-9.25846
▁felt	-9.26126
▁Didn	-9.26282
▁player	-9.26412
▁reply	-9.26574
▁stud	-9.26591
▁actual	-9.26729
▁trade	-9.26877
▁often	-9.27002
▁brother	-9.2713
▁mental	-9.27285
▁death	-9.27485
▁sharing	-9.27489
▁general	-9.27511
▁main	-9.27554
50	-9.27867
ALL	-9.27875
▁straight	-9.27945
▁basically	-9.27948
▁wo	-9.28164
▁living	-9.28182
▁decide	-9.28413
▁rid	-9.28449
▁outside	-9.2855
▁drink	-9.28648
▁important	-9.2888
▁incredibl	-9.29116
▁photo	-9.29116
Q	-9.29333
▁themselves	-9.29352
▁treat	-9.29614
q	-9.29686
▁especially	-9.29825
▁ridiculous	-9.29825
▁Where	-9.29827
▁mess	-9.29875
▁HA	-9.29947
▁mistake	-9.30063
▁complain	-9.30301
▁music	-9.30825
▁rule	-9.30883
▁mother	-9.30928
▁mar	-9.30989
▁light	-9.31223
▁certain	-9.31259
▁disgusting	-9.315
▁ugly	-9.31503
▁brain	-9.31557
▁doubt	-9.31756
▁pull	-9.3176
rated	-9.31807
▁mil	-9.31817
eee	-9.31849
▁dream	-9.31985
▁during	-9.31992
▁hun	-9.32325
▁choice	-9.3247
▁Right	-9.32864
▁cap	-9.32909
▁view	-9.32998
▁difference	-9.33203
▁scared	-9.33209
▁GO	-9.33428
oooo	-9.33457
▁public	-9.33695
▁Still	-9.33817
▁Make	-9.33849
▁shock	-9.33943
▁dr	-9.33968
▁system	-9.34437
▁usually	-9.34438
▁ju	-9.34576
▁fix	-9.34584
▁annoy	-9.34691
▁title	-9.34698
%	-9.34714
▁report	-9.34915
▁suppose	-9.34936
▁ruin	-9.34952
10	-9.3508
▁hilarious	-9.35436
▁Yep	-9.35943
▁burn	-9.35959
▁Everyone	-9.35981
▁noticed	-9.35983
▁star	-9.36121
range	-9.36167
▁tonight	-9.36719
▁stat	-9.3675
▁sleep	-9.36954
▁Con	-9.37026
▁cover	-9.37152
▁afraid	-9.37208
▁15	-9.37708
▁match	-9.37829
▁list	-9.3798
▁accept	-9.38241
▁worried	-9.38753
▁Most	-9.38922
uff	-9.38989
pping	-9.39134
▁Mi	-9.39268
▁drug	-9.39372
▁wall	-9.39482
▁Ya	-9.39658
▁stick	-9.39791
▁current	-9.39796
▁respect	-9.39988
▁hoping	-9.40075
‘	-9.40585
▁elect	-9.40853
▁three	-9.40859
▁spend	-9.40876
cept	-9.40885
▁except	-9.40898
▁order	-9.40929
▁Pretty	-9.41115
▁amount	-9.41115
▁Which	-9.41115
▁concern	-9.41115
▁suggest	-9.41381
back	-9.42043
▁similar	-9.42183
▁relate	-9.42355
▁confused	-9.42452
▁welcome	-9.42452
▁angry	-9.42461
▁share	-9.42629
work	-9.42724
▁round	-9.42725
▁murder	-9.42992
▁finish	-9.43264
▁defend	-9.43343
▁cost	-9.43966
▁finally	-9.44014
▁interested	-9.44053
▁prefer	-9.44084
▁Ex	-9.44377
▁behind	-9.4463
▁hug	-9.44843
▁effect	-9.44905
scribe	-9.44905
▁sexual	-9.44968
▁Ra	-9.45269
▁honest	-9.45398
▁attention	-9.45458
▁LOL	-9.45458
▁option	-9.45464
▁skin	-9.45737
▁blood	-9.45739
▁proud	-9.45745
▁blame	-9.45753
▁Best	-9.4604
▁emotion	-9.46574
rank	-9.46639
▁legal	-9.46814
▁husband	-9.46854
▁tax	-9.46856
▁bud	-9.46861
▁cheat	-9.46914
▁obviously	-9.47372
▁himself	-9.47419
▁black	-9.47512
▁Probably	-9.47702
▁steal	-9.47712
▁build	-9.48271
▁push	-9.48277
▁shut	-9.4831
▁&	-9.48432
hahaha	-9.48759
▁Imagine	-9.4913
▁original	-9.4913
▁smell	-9.49131
???	-9.49326
head	-9.49603
▁common	-9.49709
▁price	-9.49713
▁trust	-9.50005
🤣	-9.50289
▁test	-9.50457
▁scene	-9.50589
▁crap	-9.50723
▁Stop	-9.508
▁send	-9.51161
▁Could	-9.51167
▁insane	-9.51462
▁animal	-9.51462
▁Weird	-9.51465
RO	-9.51472
▁extremely	-9.51583
▁regret	-9.52051
▁white	-9.52105
▁screen	-9.52649
▁early	-9.52961
▁deep	-9.53043
▁due	-9.53098
▁bull	-9.53151
99	-9.53187
hile	-9.534
▁assume	-9.53576
▁example	-9.53844
▁creepy	-9.54068
▁12	-9.54135
▁piece	-9.54148
▁buddy	-9.54179
▁upset	-9.54249
▁text	-9.54451
▁NOT	-9.54458
▁running	-9.55113
▁position	-9.55671
ency	-9.55879
▁political	-9.55978
▁doctor	-9.55979
▁adult	-9.55981
|	-9.56287
▁trash	-9.5648
▁freak	-9.56599
▁front	-9.56601
▁Nothing	-9.56934
▁accident	-9.57219
▁truth	-9.5722
▁draft	-9.57845
▁block	-9.58016
▁morning	-9.5816
▁source	-9.58165
▁train	-9.58303
▁surprise	-9.58425
▁service	-9.58475
▁grand	-9.58571
The	-9.58697
▁Congrats	-9.58791
▁THIS	-9.58791
▁Welcome	-9.58791
▁psych	-9.58792
▁company	-9.58793
▁^^	-9.58809
▁store	-9.58849
▁abuse	-9.58865
▁disagree	-9.59109
▁message	-9.59186
▁wonderful	-9.5931
▁slow	-9.59338
▁Interesting	-9.59427
▁Cheers	-9.59428
▁special	-9.59443
▁coach	-9.59681
▁extra	-9.59873
▁para	-9.59974
▁catch	-9.60026
▁discuss	-9.60067
▁nobody	-9.60067
▁100%	-9.60089
▁protect	-9.60389
▁taste	-9.60507
CH	-9.60525
▁space	-9.61039
▁insult	-9.61045
play	-9.61209
0%	-9.61302
▁200	-9.61331
▁write	-9.61389
▁reference	-9.61685
▁police	-9.61687
▁Too	-9.61703
▁gotten	-9.61724
▁yesterday	-9.62012
▁major	-9.62012
▁avoid	-9.62016
▁effort	-9.6234
▁<3	-9.6234
▁specific	-9.62343
ology	-9.62391
▁million	-9.62999
▁truly	-9.63003
UR	-9.63083
eason	-9.63196
▁league	-9.6333
▁With	-9.6334
▁jump	-9.63428
😂😂	-9.63533
▁exact	-9.63662
▁Ugh	-9.63665
▁media	-9.64035
▁spot	-9.64252
▁info	-9.64581
▁smile	-9.64666
▁admit	-9.64668
▁Idk	-9.65324
▁clean	-9.65685
▁sell	-9.65723
▁cross	-9.66023
ppl	-9.66113
CK	-9.66237
▁confirm	-9.6636
▁Qu	-9.66386
▁fault	-9.6671
▁road	-9.66711
▁unfortunately	-9.66836
▁roll	-9.67091
point	-9.67248
▁etc	-9.67307
▁record	-9.67392
▁losing	-9.67538
▁college	-9.67737
▁community	-9.67737
▁illegal	-9.67737
▁THAT	-9.67738
▁kick	-9.67832
11	-9.67866
▁personally	-9.67999
▁lack	-9.68072
▁;)	-9.68087
load	-9.68651
▁reaction	-9.68783
ably	-9.68836
▁business	-9.69134
▁toxic	-9.69152
aaaa	-9.69581
▁interest	-9.69774
▁mouth	-9.69841
▁allowed	-9.69849
▁serve	-9.69951
▁edit	-9.70073
▁success	-9.70194
tiva	-9.70232
▁delete	-9.70279
▁evidence	-9.7055
▁rich	-9.70582
▁trouble	-9.70907
▁awkward	-9.71265
▁jealous	-9.71265
▁bunch	-9.71266
▁cheap	-9.71626
▁birthday	-9.71986
▁sister	-9.71989
kept	-9.72024
▁alive	-9.72064
▁Sometimes	-9.72349
▁True	-9.72373
▁dark	-9.72419
▁contract	-9.73077
▁conversation	-9.73077
▁Stay	-9.73088
▁Hopefully	-9.73103
what	-9.73113
▁Canada	-9.73444
▁Okay	-9.73446
▁continue	-9.73811
▁banned	-9.73811
▁join	-9.73814
▁anxiety	-9.7418
▁destroy	-9.7418
▁decision	-9.7455
▁voice	-9.74553
▁charge	-9.74558
▁paid	-9.74559
▁recommend	-9.74922
▁bottom	-9.74922
▁19	-9.74988
▁physical	-9.75295
▁value	-9.75303
▁aware	-9.7532
▁Exactly	-9.75669
▁Should	-9.75669
▁middle	-9.75669
field	-9.75756
▁society	-9.76045
▁username	-9.76045
▁smart	-9.76046
▁gross	-9.76047
▁logic	-9.76095
▁double	-9.76425
you	-9.7672
▁regard	-9.76805
▁blow	-9.77081
▁garbage	-9.77182
▁Remind	-9.77183
▁rock	-9.77194
▁attractive	-9.77223
uuu	-9.77717
▁result	-9.78333
▁series	-9.78333
▁decent	-9.78338
▁easier	-9.78717
▁visit	-9.78748
▁Awesome	-9.79105
▁focus	-9.79105
▁football	-9.79494
▁drunk	-9.79494
hood	-9.79516
▁porn	-9.7983
▁apparently	-9.79885
▁Except	-9.79897
oooooo	-9.80249
▁respond	-9.80277
▁Russia	-9.80278
▁update	-9.80552
▁information	-9.80671
▁film	-9.80686
avi	-9.80694
▁random	-9.81066
▁tired	-9.81094
▁commit	-9.81463
▁version	-9.81463
▁excuse	-9.81464
▁appear	-9.81571
▁defense	-9.81861
▁married	-9.81862
▁dangerous	-9.82261
▁difficult	-9.82261
▁blue	-9.82269
▁$1	-9.82384
‍	-9.82663
▁attempt	-9.82663
▁easily	-9.82663
▁complete	-9.83137
▁Gott	-9.83242
▁obvious	-9.83537
fect	-9.84062
▁skill	-9.84696
▁tomorrow	-9.84696
clearly	-9.84831
▁rare	-9.84882
▁somehow	-9.8511
ugg	-9.85349
▁judge	-9.85521
▁absolute	-9.85595
▁fellow	-9.85936
▁above	-9.85964
▁average	-9.8636
graph	-9.86519
😭	-9.8677
▁purpose	-9.8677
▁risk	-9.86775
▁Actually	-9.8719
▁positive	-9.8719
▁otherwise	-9.87612
▁quality	-9.87613
▁large	-9.8764
▁twice	-9.87682
▁jerk	-9.88045
ified	-9.88047
▁tech	-9.8805
▁YouTube	-9.88461
▁mix	-9.88462
▁race	-9.88509
▁trigger	-9.88889
▁sentence	-9.88889
▁sport	-9.89028
omeone	-9.89196
▁Enjoy	-9.89318
▁Seriously	-9.89318
▁market	-9.8932
▁scream	-9.89321
▁crime	-9.89325
tric	-9.89399
▁favourite	-9.90182
▁ignorant	-9.90182
▁ground	-9.90182
▁color	-9.90202
▁accurate	-9.90617
▁entertain	-9.90617
▁affect	-9.9062
▁faith	-9.90621
▁Super	-9.90626
▁Unfortunately	-9.91053
▁contact	-9.91054
▁apart	-9.91061
▁limit	-9.91062
▁Definitely	-9.91492
▁FUCK	-9.91492
▁snow	-9.91494
▁score	-9.91671
▁2019	-9.91932
▁Congratulations	-9.91932
▁comfort	-9.91933
▁pretend	-9.92382
▁design	-9.92387
▁loud	-9.92388
▁return	-9.9282
▁Tell	-9.92844
<	-9.93265
▁Especially	-9.93266
▁expensive	-9.93266
▁multiple	-9.93266
▁pizza	-9.93266
▁spell	-9.93283
▁salt	-9.93485
▁release	-9.93716
▁final	-9.93844
▁town	-9.93934
▁behavior	-9.94617
▁third	-9.94619
▁daughter	-9.95072
▁breath	-9.95072
▁ignore	-9.95074
▁content	-9.95105
▁natural	-9.95528
▁Nobody	-9.95529
▁context	-9.95987
▁moron	-9.95992
▁Feel	-9.95998
▁Agree	-9.96019
You	-9.96221
▁boyfriend	-9.96448
▁disappointed	-9.96448
▁girlfriend	-9.96448
▁bullshit	-9.96448
▁damage	-9.96451
▁threat	-9.96457
▁draw	-9.96478
▁fantastic	-9.96911
⠀	-9.96912
▁politics	-9.97376
▁Funny	-9.97376
▁choose	-9.97377
▁suffer	-9.97378
▁tweet	-9.97379
▁compared	-9.97384
▁shirt	-9.97388
▁Time	-9.97878
▁uncomfortable	-9.98313
▁From	-9.98326
▁hype	-9.98481
▁religion	-9.98784
▁develop	-9.98784
▁drag	-9.98788
▁Always	-9.99258
▁Watch	-9.99262
▁despi	-9.99331
▁employ	-9.99734
▁progress	-9.99734
▁asshole	-9.99735
▁temp	-9.99744
▁language	-10.0021
▁removed	-10.0021
▁plenty	-10.0021
apolog	-10.0062
▁driving	-10.0069
▁summer	-10.0069
▁caught	-10.007
▁regular	-10.0118
▁period	-10.0118
▁stories	-10.0118
▁interview	-10.0166
▁huh	-10.0215
▁finger	-10.0234
▁president	-10.0264
▁local	-10.0265
▁omg	-10.0265
▁product	-10.0313
▁Something	-10.0314
▁karma	-10.0363
▁nightmare	-10.0413
▁provide	-10.0413
▁spec	-10.0463
▁screw	-10.0513
▁medical	-10.0514
▁dollar	-10.0515
▁project	-10.0563
▁moving	-10.0564
▁role	-10.0574
▁zero	-10.0614
▁require	-10.0614
▁After	-10.0615
▁quote	-10.0615
▁alright	-10.0616
just	-10.066
❤	-10.0665
▁professional	-10.0665
▁search	-10.0665
👏	-10.0768
▁❤️	-10.0768
room	-10.079
▁equal	-10.082
▁neighbor	-10.082
▁foot	-10.0822
▁culture	-10.0872
▁negative	-10.0872
▁science	-10.0872
▁process	-10.0872
▁talent	-10.0872
▁loving	-10.0873
▁website	-10.0924
▁glass	-10.0977
▁false	-10.0978
▁depression	-10.103
▁earlier	-10.1083
ification	-10.1083
rrow	-10.1109
▁available	-10.1136
▁improve	-10.1136
HHH	-10.1139
audi	-10.115
▁opposite	-10.119
▁itself	-10.119
▁evil	-10.119
▁fool	-10.1191
▁remain	-10.1191
▁kiss	-10.13
▁dress	-10.13
▁clue	-10.13
▁hospital	-10.1353
▁injury	-10.1408
▁prison	-10.1408
▁silly	-10.1409
▁google	-10.1463
▁liberal	-10.1463
▁stream	-10.152
▁delusion	-10.1575
▁channel	-10.1575
▁harass	-10.1575
▁flag	-10.1576
▁Sadly	-10.1633
▁magic	-10.1663
▁drama	-10.1688
▁detail	-10.1688
▁paper	-10.1689
▁addict	-10.1706
▁eventually	-10.1744
▁credit	-10.1745
▁moral	-10.1755
▁author	-10.1801
▁street	-10.1802
▁stress	-10.1803
vision	-10.1807
▁particular	-10.1859
▁restaurant	-10.1859
▁First	-10.1859
▁represent	-10.1917
▁folks	-10.1917
▁bastard	-10.1917
▁massive	-10.1917
▁desperate	-10.1975
▁across	-10.1975
▁traffic	-10.1975
▁spirit	-10.1975
▁smh	-10.1976
▁solid	-10.1976
▁constantly	-10.2033
▁happiness	-10.2033
▁victim	-10.2033
▁Play	-10.2034
▁raise	-10.2036
▁marriage	-10.2092
▁vegan	-10.2092
▁ironic	-10.2093
uzz	-10.2105
capita	-10.2135
▁Absolutely	-10.2151
▁gift	-10.2152
▁impossible	-10.2211
▁research	-10.2211
▁argue	-10.2211
▁chicken	-10.2211
▁writing	-10.2211
▁playoffs	-10.2271
🤔	-10.2271
▁OMG	-10.2271
▁slightly	-10.2271
▁therapy	-10.2271
▁potential	-10.2331
▁everybody	-10.2331
▁Totally	-10.2331
▁decade	-10.2331
,000	-10.2343
▁bug	-10.2388
▁involved	-10.2392
▁connect	-10.2392
▁smoke	-10.2392
▁assuming	-10.2392
▁individual	-10.2453
▁popular	-10.2453
▁innocent	-10.2453
▁album	-10.2453
▁nasty	-10.2453
▁document	-10.2453
▁replace	-10.2514
▁crowd	-10.2514
▁object	-10.2576
▁Twitter	-10.2576
▁delicious	-10.2576
▁adorable	-10.2576
▁English	-10.2638
▁WHAT	-10.2638
▁assault	-10.27
▁circle	-10.27
▁Literally	-10.27
▁brutal	-10.27
▁cheese	-10.27
▁practice	-10.2763
▁squa	-10.2763
▁Christmas	-10.2763
▁further	-10.2763
▁retire	-10.2764
▁benefit	-10.2826
▁knock	-10.2826
▁previous	-10.2826
▁somebody	-10.2826
▁apologize	-10.2827
▁divorce	-10.2954
▁embarrassing	-10.2954
▁private	-10.2954
▁afford	-10.2954
▁civil	-10.3019
▁terrifying	-10.3019
▁virgin	-10.3019
▁written	-10.3019
▁Shame	-10.3019
▁knee	-10.302
OUT	-10.3076
~	-10.4479
😂	-10.6277
$	-10.6725
>	-10.7513
#	-10.8944
😤	-11.223
&	-11.3896
“	-11.9134
